TRT-6001-EntropyCalibration2
Input: 3cf1d2a3
FeatureExtractor/MobilenetV2/Conv/Conv2D: 3dd2c212
FeatureExtractor/MobilenetV2/Conv/BatchNorm/FusedBatchNorm: 3da3e06b
FeatureExtractor/MobilenetV2/Conv/Relu6: 3d418306
FeatureExtractor/MobilenetV2/expanded_conv/depthwise/depthwise: 3d012c66
FeatureExtractor/MobilenetV2/expanded_conv/depthwise/BatchNorm/FusedBatchNorm: 3d5298dc
FeatureExtractor/MobilenetV2/expanded_conv/depthwise/Relu6: 3d418306
FeatureExtractor/MobilenetV2/expanded_conv/project/Conv2D: 3d99b692
FeatureExtractor/MobilenetV2/expanded_conv/project/BatchNorm/FusedBatchNorm: 3d550c73
FeatureExtractor/MobilenetV2/expanded_conv/output: 3d550c73
FeatureExtractor/MobilenetV2/expanded_conv_1/expand/Conv2D: 3da01f83
FeatureExtractor/MobilenetV2/expanded_conv_1/expand/BatchNorm/FusedBatchNorm: 3d5a743f
FeatureExtractor/MobilenetV2/expanded_conv_1/expand/Relu6: 3d418306
FeatureExtractor/MobilenetV2/expanded_conv_1/depthwise/depthwise: 3d8ff728
FeatureExtractor/MobilenetV2/expanded_conv_1/depthwise/BatchNorm/FusedBatchNorm: 3dac178a
FeatureExtractor/MobilenetV2/expanded_conv_1/depthwise/Relu6: 3d418306
FeatureExtractor/MobilenetV2/expanded_conv_1/project/Conv2D: 3dfd5873
FeatureExtractor/MobilenetV2/expanded_conv_1/project/BatchNorm/FusedBatchNorm: 3d820444
FeatureExtractor/MobilenetV2/expanded_conv_1/output: 3d820444
FeatureExtractor/MobilenetV2/expanded_conv_2/expand/Conv2D: 3dc1c945
FeatureExtractor/MobilenetV2/expanded_conv_2/expand/BatchNorm/FusedBatchNorm: 3d78ed13
FeatureExtractor/MobilenetV2/expanded_conv_2/expand/Relu6: 3d418306
FeatureExtractor/MobilenetV2/expanded_conv_2/depthwise/depthwise: 3d9e43b8
FeatureExtractor/MobilenetV2/expanded_conv_2/depthwise/BatchNorm/FusedBatchNorm: 3dab29e1
FeatureExtractor/MobilenetV2/expanded_conv_2/depthwise/Relu6: 3d418306
FeatureExtractor/MobilenetV2/expanded_conv_2/project/Conv2D: 3db800c7
FeatureExtractor/MobilenetV2/expanded_conv_2/project/BatchNorm/FusedBatchNorm: 3d4a0729
FeatureExtractor/MobilenetV2/expanded_conv_2/add: 3d86ba6d
FeatureExtractor/MobilenetV2/expanded_conv_2/output: 3d86ba6d
FeatureExtractor/MobilenetV2/expanded_conv_3/expand/Conv2D: 3dc2ef6f
FeatureExtractor/MobilenetV2/expanded_conv_3/expand/BatchNorm/FusedBatchNorm: 3d35cdb0
FeatureExtractor/MobilenetV2/expanded_conv_3/expand/Relu6: 3d418306
FeatureExtractor/MobilenetV2/expanded_conv_3/depthwise/depthwise: 3d39e35c
FeatureExtractor/MobilenetV2/expanded_conv_3/depthwise/BatchNorm/FusedBatchNorm: 3d6727f5
FeatureExtractor/MobilenetV2/expanded_conv_3/depthwise/Relu6: 3d418306
FeatureExtractor/MobilenetV2/expanded_conv_3/project/Conv2D: 3d6d4b7c
FeatureExtractor/MobilenetV2/expanded_conv_3/project/BatchNorm/FusedBatchNorm: 3ce4db07
FeatureExtractor/MobilenetV2/expanded_conv_3/output: 3ce4db07
FeatureExtractor/MobilenetV2/expanded_conv_4/expand/Conv2D: 3d1ca34d
FeatureExtractor/MobilenetV2/expanded_conv_4/expand/BatchNorm/FusedBatchNorm: 3cfad6b8
FeatureExtractor/MobilenetV2/expanded_conv_4/expand/Relu6: 3d418306
FeatureExtractor/MobilenetV2/expanded_conv_4/depthwise/depthwise: 3d14e760
FeatureExtractor/MobilenetV2/expanded_conv_4/depthwise/BatchNorm/FusedBatchNorm: 3d3f3e90
FeatureExtractor/MobilenetV2/expanded_conv_4/depthwise/Relu6: 3d418306
FeatureExtractor/MobilenetV2/expanded_conv_4/project/Conv2D: 3d903bb8
FeatureExtractor/MobilenetV2/expanded_conv_4/project/BatchNorm/FusedBatchNorm: 3d097f63
FeatureExtractor/MobilenetV2/expanded_conv_4/add: 3d1a12bc
FeatureExtractor/MobilenetV2/expanded_conv_4/output: 3d1a12bc
FeatureExtractor/MobilenetV2/expanded_conv_5/expand/Conv2D: 3d36d894
FeatureExtractor/MobilenetV2/expanded_conv_5/expand/BatchNorm/FusedBatchNorm: 3cf61937
FeatureExtractor/MobilenetV2/expanded_conv_5/expand/Relu6: 3d418306
FeatureExtractor/MobilenetV2/expanded_conv_5/depthwise/depthwise: 3cb1c733
FeatureExtractor/MobilenetV2/expanded_conv_5/depthwise/BatchNorm/FusedBatchNorm: 3d215791
FeatureExtractor/MobilenetV2/expanded_conv_5/depthwise/Relu6: 3d418306
FeatureExtractor/MobilenetV2/expanded_conv_5/project/Conv2D: 3d5c7d59
FeatureExtractor/MobilenetV2/expanded_conv_5/project/BatchNorm/FusedBatchNorm: 3d03844f
FeatureExtractor/MobilenetV2/expanded_conv_5/add: 3d53ba3e
FeatureExtractor/MobilenetV2/expanded_conv_5/output: 3d53ba3e
FeatureExtractor/MobilenetV2/expanded_conv_6/expand/Conv2D: 3d90bb9f
FeatureExtractor/MobilenetV2/expanded_conv_6/expand/BatchNorm/FusedBatchNorm: 3ce76765
FeatureExtractor/MobilenetV2/expanded_conv_6/expand/Relu6: 3d418306
FeatureExtractor/MobilenetV2/expanded_conv_6/depthwise/depthwise: 3d1d705c
FeatureExtractor/MobilenetV2/expanded_conv_6/depthwise/BatchNorm/FusedBatchNorm: 3d2f6cee
FeatureExtractor/MobilenetV2/expanded_conv_6/depthwise/Relu6: 3d418306
FeatureExtractor/MobilenetV2/expanded_conv_6/project/Conv2D: 3db9e8a1
FeatureExtractor/MobilenetV2/expanded_conv_6/project/BatchNorm/FusedBatchNorm: 3d0027c2
FeatureExtractor/MobilenetV2/expanded_conv_6/output: 3d0027c2
FeatureExtractor/MobilenetV2/expanded_conv_7/expand/Conv2D: 3d2a2cc5
FeatureExtractor/MobilenetV2/expanded_conv_7/expand/BatchNorm/FusedBatchNorm: 3d061a60
FeatureExtractor/MobilenetV2/expanded_conv_7/expand/Relu6: 3d418306
FeatureExtractor/MobilenetV2/expanded_conv_7/depthwise/depthwise: 3cfc0f51
FeatureExtractor/MobilenetV2/expanded_conv_7/depthwise/BatchNorm/FusedBatchNorm: 3d4de800
FeatureExtractor/MobilenetV2/expanded_conv_7/depthwise/Relu6: 3d418306
FeatureExtractor/MobilenetV2/expanded_conv_7/project/Conv2D: 3e0278a1
FeatureExtractor/MobilenetV2/expanded_conv_7/project/BatchNorm/FusedBatchNorm: 3d26035f
FeatureExtractor/MobilenetV2/expanded_conv_7/add: 3d59ccb4
FeatureExtractor/MobilenetV2/expanded_conv_7/output: 3d59ccb4
FeatureExtractor/MobilenetV2/expanded_conv_8/expand/Conv2D: 3dcb5b25
FeatureExtractor/MobilenetV2/expanded_conv_8/expand/BatchNorm/FusedBatchNorm: 3d2eb239
FeatureExtractor/MobilenetV2/expanded_conv_8/expand/Relu6: 3d418306
FeatureExtractor/MobilenetV2/expanded_conv_8/depthwise/depthwise: 3d2c8ff4
FeatureExtractor/MobilenetV2/expanded_conv_8/depthwise/BatchNorm/FusedBatchNorm: 3dac3230
FeatureExtractor/MobilenetV2/expanded_conv_8/depthwise/Relu6: 3d418306
FeatureExtractor/MobilenetV2/expanded_conv_8/project/Conv2D: 3e005152
FeatureExtractor/MobilenetV2/expanded_conv_8/project/BatchNorm/FusedBatchNorm: 3d45a781
FeatureExtractor/MobilenetV2/expanded_conv_8/add: 3db86789
FeatureExtractor/MobilenetV2/expanded_conv_8/output: 3db86789
FeatureExtractor/MobilenetV2/expanded_conv_9/expand/Conv2D: 3dbc4a16
FeatureExtractor/MobilenetV2/expanded_conv_9/expand/BatchNorm/FusedBatchNorm: 3d471db6
FeatureExtractor/MobilenetV2/expanded_conv_9/expand/Relu6: 3d418306
FeatureExtractor/MobilenetV2/expanded_conv_9/depthwise/depthwise: 3d3b7fe3
FeatureExtractor/MobilenetV2/expanded_conv_9/depthwise/BatchNorm/FusedBatchNorm: 3dab6099
FeatureExtractor/MobilenetV2/expanded_conv_9/depthwise/Relu6: 3d418306
FeatureExtractor/MobilenetV2/expanded_conv_9/project/Conv2D: 3dd549e9
FeatureExtractor/MobilenetV2/expanded_conv_9/project/BatchNorm/FusedBatchNorm: 3d927137
FeatureExtractor/MobilenetV2/expanded_conv_9/add: 3e2352c3
FeatureExtractor/MobilenetV2/expanded_conv_9/output: 3e2352c3
FeatureExtractor/MobilenetV2/expanded_conv_10/expand/Conv2D: 3e37be0e
FeatureExtractor/MobilenetV2/expanded_conv_10/expand/BatchNorm/FusedBatchNorm: 3d52fea7
FeatureExtractor/MobilenetV2/expanded_conv_10/expand/Relu6: 3d418306
FeatureExtractor/MobilenetV2/expanded_conv_10/depthwise/depthwise: 3d4c25c5
FeatureExtractor/MobilenetV2/expanded_conv_10/depthwise/BatchNorm/FusedBatchNorm: 3d934c21
FeatureExtractor/MobilenetV2/expanded_conv_10/depthwise/Relu6: 3d418306
FeatureExtractor/MobilenetV2/expanded_conv_10/project/Conv2D: 3e52d53b
FeatureExtractor/MobilenetV2/expanded_conv_10/project/BatchNorm/FusedBatchNorm: 3d95d85d
FeatureExtractor/MobilenetV2/expanded_conv_10/output: 3d95d85d
FeatureExtractor/MobilenetV2/expanded_conv_11/expand/Conv2D: 3e37152a
FeatureExtractor/MobilenetV2/expanded_conv_11/expand/BatchNorm/FusedBatchNorm: 3d99c6d9
FeatureExtractor/MobilenetV2/expanded_conv_11/expand/Relu6: 3d418306
FeatureExtractor/MobilenetV2/expanded_conv_11/depthwise/depthwise: 3d24e1b3
FeatureExtractor/MobilenetV2/expanded_conv_11/depthwise/BatchNorm/FusedBatchNorm: 3d9c8cef
FeatureExtractor/MobilenetV2/expanded_conv_11/depthwise/Relu6: 3d418306
FeatureExtractor/MobilenetV2/expanded_conv_11/project/Conv2D: 3e508ee0
FeatureExtractor/MobilenetV2/expanded_conv_11/project/BatchNorm/FusedBatchNorm: 3d9f6e7e
FeatureExtractor/MobilenetV2/expanded_conv_11/add: 3e121216
FeatureExtractor/MobilenetV2/expanded_conv_11/output: 3e121216
FeatureExtractor/MobilenetV2/expanded_conv_12/expand/Conv2D: 3ef044b7
FeatureExtractor/MobilenetV2/expanded_conv_12/expand/BatchNorm/FusedBatchNorm: 3d8d4e85
FeatureExtractor/MobilenetV2/expanded_conv_12/expand/Relu6: 3d418306
FeatureExtractor/MobilenetV2/expanded_conv_12/depthwise/depthwise: 3d133281
FeatureExtractor/MobilenetV2/expanded_conv_12/depthwise/BatchNorm/FusedBatchNorm: 3da96e4f
FeatureExtractor/MobilenetV2/expanded_conv_12/depthwise/Relu6: 3d418306
FeatureExtractor/MobilenetV2/expanded_conv_12/project/Conv2D: 3e4c2f87
FeatureExtractor/MobilenetV2/expanded_conv_12/project/BatchNorm/FusedBatchNorm: 3d9bcb70
FeatureExtractor/MobilenetV2/expanded_conv_12/add: 3e54702c
FeatureExtractor/MobilenetV2/expanded_conv_12/output: 3e54702c
FeatureExtractor/MobilenetV2/expanded_conv_13/expand/Conv2D: 3f03aba0
FeatureExtractor/MobilenetV2/expanded_conv_13/expand/BatchNorm/FusedBatchNorm: 3d9869dd
FeatureExtractor/MobilenetV2/expanded_conv_13/expand/Relu6: 3d418306
BoxPredictor_0/BoxEncodingPredictor/Conv2D: 3dc388e8
BoxPredictor_0/BoxEncodingPredictor/BiasAdd: 3dd55a10
(Unnamed Layer* 338) [Shuffle]_output: 3dd55a10
BoxPredictor_0/Reshape: 3dd55a10
FeatureExtractor/MobilenetV2/expanded_conv_13/depthwise/depthwise: 3d035437
FeatureExtractor/MobilenetV2/expanded_conv_13/depthwise/BatchNorm/FusedBatchNorm: 3daca3c9
FeatureExtractor/MobilenetV2/expanded_conv_13/depthwise/Relu6: 3d418306
FeatureExtractor/MobilenetV2/expanded_conv_13/project/Conv2D: 3e2a10c8
FeatureExtractor/MobilenetV2/expanded_conv_13/project/BatchNorm/FusedBatchNorm: 3d802c3c
FeatureExtractor/MobilenetV2/expanded_conv_13/output: 3d802c3c
FeatureExtractor/MobilenetV2/expanded_conv_14/expand/Conv2D: 3e062497
FeatureExtractor/MobilenetV2/expanded_conv_14/expand/BatchNorm/FusedBatchNorm: 3d870ca6
FeatureExtractor/MobilenetV2/expanded_conv_14/expand/Relu6: 3d418306
FeatureExtractor/MobilenetV2/expanded_conv_14/depthwise/depthwise: 3ce30c71
FeatureExtractor/MobilenetV2/expanded_conv_14/depthwise/BatchNorm/FusedBatchNorm: 3dc15972
FeatureExtractor/MobilenetV2/expanded_conv_14/depthwise/Relu6: 3d418306
FeatureExtractor/MobilenetV2/expanded_conv_14/project/Conv2D: 3e229f10
FeatureExtractor/MobilenetV2/expanded_conv_14/project/BatchNorm/FusedBatchNorm: 3d835960
FeatureExtractor/MobilenetV2/expanded_conv_14/add: 3de1ca3c
FeatureExtractor/MobilenetV2/expanded_conv_14/output: 3de1ca3c
FeatureExtractor/MobilenetV2/expanded_conv_15/expand/Conv2D: 3e2199f8
FeatureExtractor/MobilenetV2/expanded_conv_15/expand/BatchNorm/FusedBatchNorm: 3d8c9b8b
FeatureExtractor/MobilenetV2/expanded_conv_15/expand/Relu6: 3d418306
FeatureExtractor/MobilenetV2/expanded_conv_15/depthwise/depthwise: 3d01c3f4
FeatureExtractor/MobilenetV2/expanded_conv_15/depthwise/BatchNorm/FusedBatchNorm: 3dbb777c
FeatureExtractor/MobilenetV2/expanded_conv_15/depthwise/Relu6: 3d418306
FeatureExtractor/MobilenetV2/expanded_conv_15/project/Conv2D: 3e126ade
FeatureExtractor/MobilenetV2/expanded_conv_15/project/BatchNorm/FusedBatchNorm: 3d8385d2
FeatureExtractor/MobilenetV2/expanded_conv_15/add: 3e2837b3
FeatureExtractor/MobilenetV2/expanded_conv_15/output: 3e2837b3
FeatureExtractor/MobilenetV2/expanded_conv_16/expand/Conv2D: 3e8b507c
FeatureExtractor/MobilenetV2/expanded_conv_16/expand/BatchNorm/FusedBatchNorm: 3da2c303
FeatureExtractor/MobilenetV2/expanded_conv_16/expand/Relu6: 3d418306
FeatureExtractor/MobilenetV2/expanded_conv_16/depthwise/depthwise: 3d09919f
FeatureExtractor/MobilenetV2/expanded_conv_16/depthwise/BatchNorm/FusedBatchNorm: 3da9c49c
FeatureExtractor/MobilenetV2/expanded_conv_16/depthwise/Relu6: 3d418306
FeatureExtractor/MobilenetV2/expanded_conv_16/project/Conv2D: 3ea53b87
FeatureExtractor/MobilenetV2/expanded_conv_16/project/BatchNorm/FusedBatchNorm: 3da1bc89
FeatureExtractor/MobilenetV2/expanded_conv_16/project/Identity: 3da1bc89
FeatureExtractor/MobilenetV2/Conv_1/Conv2D: 3e72c29a
FeatureExtractor/MobilenetV2/Conv_1/BatchNorm/FusedBatchNorm: 3d94992a
FeatureExtractor/MobilenetV2/Conv_1/Relu6: 3d418306
BoxPredictor_1/BoxEncodingPredictor/Conv2D: 3d83415a
BoxPredictor_1/BoxEncodingPredictor/BiasAdd: 3d7c58f6
(Unnamed Layer* 448) [Shuffle]_output: 3d7c58f6
BoxPredictor_1/Reshape: 3d7c58f6
FeatureExtractor/MobilenetV2/layer_19_1_Conv2d_2_1x1_256/Conv2D: 3e46cc2c
FeatureExtractor/MobilenetV2/layer_19_1_Conv2d_2_1x1_256/BatchNorm/FusedBatchNorm: 3d8bea01
FeatureExtractor/MobilenetV2/layer_19_1_Conv2d_2_1x1_256/Relu6: 3d418306
FeatureExtractor/MobilenetV2/layer_19_2_Conv2d_2_3x3_s2_512_depthwise/depthwise: 3c4fcea8
FeatureExtractor/MobilenetV2/layer_19_2_Conv2d_2_3x3_s2_512_depthwise/BatchNorm/FusedBatchNorm: 3d7169e5
FeatureExtractor/MobilenetV2/layer_19_2_Conv2d_2_3x3_s2_512_depthwise/Relu6: 3d418306
FeatureExtractor/MobilenetV2/layer_19_2_Conv2d_2_3x3_s2_512/Conv2D: 3d77afa7
FeatureExtractor/MobilenetV2/layer_19_2_Conv2d_2_3x3_s2_512/BatchNorm/FusedBatchNorm: 3d1d6569
FeatureExtractor/MobilenetV2/layer_19_2_Conv2d_2_3x3_s2_512/Relu6: 3d418306
BoxPredictor_2/BoxEncodingPredictor/Conv2D: 3cc18785
BoxPredictor_2/BoxEncodingPredictor/BiasAdd: 3cc74e3b
(Unnamed Layer* 484) [Shuffle]_output: 3cc74e3b
BoxPredictor_2/Reshape: 3cc74e3b
FeatureExtractor/MobilenetV2/layer_19_1_Conv2d_3_1x1_128/Conv2D: 3d6eb2a5
FeatureExtractor/MobilenetV2/layer_19_1_Conv2d_3_1x1_128/BatchNorm/FusedBatchNorm: 3d04f6a3
FeatureExtractor/MobilenetV2/layer_19_1_Conv2d_3_1x1_128/Relu6: 3d418306
FeatureExtractor/MobilenetV2/layer_19_2_Conv2d_3_3x3_s2_256_depthwise/depthwise: 3bdbf983
FeatureExtractor/MobilenetV2/layer_19_2_Conv2d_3_3x3_s2_256_depthwise/BatchNorm/FusedBatchNorm: 3cf82927
FeatureExtractor/MobilenetV2/layer_19_2_Conv2d_3_3x3_s2_256_depthwise/Relu6: 3d418306
FeatureExtractor/MobilenetV2/layer_19_2_Conv2d_3_3x3_s2_256/Conv2D: 3c57a38b
FeatureExtractor/MobilenetV2/layer_19_2_Conv2d_3_3x3_s2_256/BatchNorm/FusedBatchNorm: 3cd728b6
FeatureExtractor/MobilenetV2/layer_19_2_Conv2d_3_3x3_s2_256/Relu6: 3d418306
BoxPredictor_3/BoxEncodingPredictor/Conv2D: 3cc5a5de
BoxPredictor_3/BoxEncodingPredictor/BiasAdd: 3cc698b4
(Unnamed Layer* 520) [Shuffle]_output: 3cc698b4
BoxPredictor_3/Reshape: 3cc698b4
FeatureExtractor/MobilenetV2/layer_19_1_Conv2d_4_1x1_128/Conv2D: 3ca38320
FeatureExtractor/MobilenetV2/layer_19_1_Conv2d_4_1x1_128/BatchNorm/FusedBatchNorm: 3cd5f5c5
FeatureExtractor/MobilenetV2/layer_19_1_Conv2d_4_1x1_128/Relu6: 3d418306
FeatureExtractor/MobilenetV2/layer_19_2_Conv2d_4_3x3_s2_256_depthwise/depthwise: 3b8ae881
FeatureExtractor/MobilenetV2/layer_19_2_Conv2d_4_3x3_s2_256_depthwise/BatchNorm/FusedBatchNorm: 3cb61936
FeatureExtractor/MobilenetV2/layer_19_2_Conv2d_4_3x3_s2_256_depthwise/Relu6: 3d418306
FeatureExtractor/MobilenetV2/layer_19_2_Conv2d_4_3x3_s2_256/Conv2D: 3c2fc217
FeatureExtractor/MobilenetV2/layer_19_2_Conv2d_4_3x3_s2_256/BatchNorm/FusedBatchNorm: 3cb85223
FeatureExtractor/MobilenetV2/layer_19_2_Conv2d_4_3x3_s2_256/Relu6: 3d418306
BoxPredictor_4/BoxEncodingPredictor/Conv2D: 3ca62f49
BoxPredictor_4/BoxEncodingPredictor/BiasAdd: 3ca755fb
(Unnamed Layer* 556) [Shuffle]_output: 3ca755fb
BoxPredictor_4/Reshape: 3ca755fb
FeatureExtractor/MobilenetV2/layer_19_1_Conv2d_5_1x1_64/Conv2D: 3cbc606f
FeatureExtractor/MobilenetV2/layer_19_1_Conv2d_5_1x1_64/BatchNorm/FusedBatchNorm: 3c9a2578
FeatureExtractor/MobilenetV2/layer_19_1_Conv2d_5_1x1_64/Relu6: 3d418306
FeatureExtractor/MobilenetV2/layer_19_2_Conv2d_5_3x3_s2_128_depthwise/depthwise: 3b62ea92
FeatureExtractor/MobilenetV2/layer_19_2_Conv2d_5_3x3_s2_128_depthwise/BatchNorm/FusedBatchNorm: 3c6a3462
FeatureExtractor/MobilenetV2/layer_19_2_Conv2d_5_3x3_s2_128_depthwise/Relu6: 3d418306
FeatureExtractor/MobilenetV2/layer_19_2_Conv2d_5_3x3_s2_128/Conv2D: 3c0e675c
FeatureExtractor/MobilenetV2/layer_19_2_Conv2d_5_3x3_s2_128/BatchNorm/FusedBatchNorm: 3cefb203
FeatureExtractor/MobilenetV2/layer_19_2_Conv2d_5_3x3_s2_128/Relu6: 3d418306
BoxPredictor_5/BoxEncodingPredictor/Conv2D: 3c8cc7d9
BoxPredictor_5/BoxEncodingPredictor/BiasAdd: 3cac74d2
(Unnamed Layer* 592) [Shuffle]_output: 3cac74d2
BoxPredictor_5/Reshape: 3cac74d2
Squeeze: 3dd55a10
Const: 3c010a14
GridAnchor: 3dd55a10
GridAnchor_1: 3dd55a10
GridAnchor_2: 3dd55a10
GridAnchor_3: 3dd55a10
GridAnchor_4: 3dd55a10
GridAnchor_5: 3dd55a10
concat_priorbox: 3dd55a10
BoxPredictor_0/ClassPredictor/Conv2D: 3fd7bde5
BoxPredictor_0/ClassPredictor/BiasAdd: 3fd7cfd9
(Unnamed Layer* 607) [Shuffle]_output: 3fd7cfd9
BoxPredictor_0/Reshape_1: 3fd7cfd9
BoxPredictor_1/ClassPredictor/Conv2D: 3f3dc18d
BoxPredictor_1/ClassPredictor/BiasAdd: 3f5295c9
(Unnamed Layer* 618) [Shuffle]_output: 3f5295c9
BoxPredictor_1/Reshape_1: 3f5295c9
BoxPredictor_2/ClassPredictor/Conv2D: 3e03f028
BoxPredictor_2/ClassPredictor/BiasAdd: 3e07ec48
(Unnamed Layer* 629) [Shuffle]_output: 3e07ec48
BoxPredictor_2/Reshape_1: 3e07ec48
BoxPredictor_3/ClassPredictor/Conv2D: 3de5b78d
BoxPredictor_3/ClassPredictor/BiasAdd: 3de0b02b
(Unnamed Layer* 640) [Shuffle]_output: 3de0b02b
BoxPredictor_3/Reshape_1: 3de0b02b
BoxPredictor_4/ClassPredictor/Conv2D: 3d95128a
BoxPredictor_4/ClassPredictor/BiasAdd: 3d95cc28
(Unnamed Layer* 651) [Shuffle]_output: 3d95cc28
BoxPredictor_4/Reshape_1: 3d95cc28
BoxPredictor_5/ClassPredictor/Conv2D: 3d8b5dd9
BoxPredictor_5/ClassPredictor/BiasAdd: 3d90318f
(Unnamed Layer* 662) [Shuffle]_output: 3d90318f
BoxPredictor_5/Reshape_1: 3d90318f
concat_box_conf: 3fe0adf2
NMS: 3efe0bd8
NMS_1: 1
