TRT-6001-EntropyCalibration2
Input: 3cf1d2a3
FeatureExtractor/MobilenetV2/Conv/Conv2D: 3e60e0f9
FeatureExtractor/MobilenetV2/Conv/BatchNorm/batchnorm/mul_1: 3f1cb9cc
FeatureExtractor/MobilenetV2/Conv/BatchNorm/batchnorm/add_1: 3ef83902
FeatureExtractor/MobilenetV2/Conv/Relu6: 3d418306
FeatureExtractor/MobilenetV2/expanded_conv/depthwise/depthwise: 3d3c460c
FeatureExtractor/MobilenetV2/expanded_conv/depthwise/BatchNorm/batchnorm/mul_1: 3dec40ac
FeatureExtractor/MobilenetV2/expanded_conv/depthwise/BatchNorm/batchnorm/add_1: 3deeaafc
FeatureExtractor/MobilenetV2/expanded_conv/depthwise/Relu6: 3d418306
FeatureExtractor/MobilenetV2/expanded_conv/project/Conv2D: 3e07c413
FeatureExtractor/MobilenetV2/expanded_conv/project/BatchNorm/batchnorm/mul_1: 3e36fe2a
FeatureExtractor/MobilenetV2/expanded_conv/project/BatchNorm/batchnorm/add_1: 3e0f141b
FeatureExtractor/MobilenetV2/expanded_conv/output: 3e0f141b
FeatureExtractor/MobilenetV2/expanded_conv_1/expand/Conv2D: 3e2230ad
FeatureExtractor/MobilenetV2/expanded_conv_1/expand/BatchNorm/batchnorm/mul_1: 3d8cdc27
FeatureExtractor/MobilenetV2/expanded_conv_1/expand/BatchNorm/batchnorm/add_1: 3d810626
FeatureExtractor/MobilenetV2/expanded_conv_1/expand/Relu6: 3d418306
FeatureExtractor/MobilenetV2/expanded_conv_1/depthwise/depthwise: 3e1689d2
FeatureExtractor/MobilenetV2/expanded_conv_1/depthwise/BatchNorm/batchnorm/mul_1: 3e0267bd
FeatureExtractor/MobilenetV2/expanded_conv_1/depthwise/BatchNorm/batchnorm/add_1: 3d52aa30
FeatureExtractor/MobilenetV2/expanded_conv_1/depthwise/Relu6: 3d418306
FeatureExtractor/MobilenetV2/expanded_conv_1/project/Conv2D: 3dcd3f66
FeatureExtractor/MobilenetV2/expanded_conv_1/project/BatchNorm/batchnorm/mul_1: 3dc37ad1
FeatureExtractor/MobilenetV2/expanded_conv_1/project/BatchNorm/batchnorm/add_1: 3dc42873
FeatureExtractor/MobilenetV2/expanded_conv_1/output: 3dc42873
FeatureExtractor/MobilenetV2/expanded_conv_2/expand/Conv2D: 3df03660
FeatureExtractor/MobilenetV2/expanded_conv_2/expand/BatchNorm/batchnorm/mul_1: 3d240e58
FeatureExtractor/MobilenetV2/expanded_conv_2/expand/BatchNorm/batchnorm/add_1: 3d6abfa4
FeatureExtractor/MobilenetV2/expanded_conv_2/expand/Relu6: 3d418306
FeatureExtractor/MobilenetV2/expanded_conv_2/depthwise/depthwise: 3e0f91bb
FeatureExtractor/MobilenetV2/expanded_conv_2/depthwise/BatchNorm/batchnorm/mul_1: 3db50191
FeatureExtractor/MobilenetV2/expanded_conv_2/depthwise/BatchNorm/batchnorm/add_1: 3ce22c4c
FeatureExtractor/MobilenetV2/expanded_conv_2/depthwise/Relu6: 3d418306
FeatureExtractor/MobilenetV2/expanded_conv_2/project/Conv2D: 3dd3f3b6
FeatureExtractor/MobilenetV2/expanded_conv_2/project/BatchNorm/batchnorm/mul_1: 3e4231d6
FeatureExtractor/MobilenetV2/expanded_conv_2/project/BatchNorm/batchnorm/add_1: 3e46fb26
FeatureExtractor/MobilenetV2/expanded_conv_2/add: 3e459286
FeatureExtractor/MobilenetV2/expanded_conv_2/output: 3e459286
FeatureExtractor/MobilenetV2/expanded_conv_3/expand/Conv2D: 3ef4014e
FeatureExtractor/MobilenetV2/expanded_conv_3/expand/BatchNorm/batchnorm/mul_1: 3dec3cf3
FeatureExtractor/MobilenetV2/expanded_conv_3/expand/BatchNorm/batchnorm/add_1: 3dd9c96b
FeatureExtractor/MobilenetV2/expanded_conv_3/expand/Relu6: 3d418306
FeatureExtractor/MobilenetV2/expanded_conv_3/depthwise/depthwise: 3e214737
FeatureExtractor/MobilenetV2/expanded_conv_3/depthwise/BatchNorm/batchnorm/mul_1: 3ded2b53
FeatureExtractor/MobilenetV2/expanded_conv_3/depthwise/BatchNorm/batchnorm/add_1: 3d8d2860
FeatureExtractor/MobilenetV2/expanded_conv_3/depthwise/Relu6: 3d418306
FeatureExtractor/MobilenetV2/expanded_conv_3/project/Conv2D: 3e065d9b
FeatureExtractor/MobilenetV2/expanded_conv_3/project/BatchNorm/batchnorm/mul_1: 3e232478
FeatureExtractor/MobilenetV2/expanded_conv_3/project/BatchNorm/batchnorm/add_1: 3df4f9b6
FeatureExtractor/MobilenetV2/expanded_conv_3/output: 3df4f9b6
FeatureExtractor/MobilenetV2/expanded_conv_4/expand/Conv2D: 3df60da4
FeatureExtractor/MobilenetV2/expanded_conv_4/expand/BatchNorm/batchnorm/mul_1: 3d61eff7
FeatureExtractor/MobilenetV2/expanded_conv_4/expand/BatchNorm/batchnorm/add_1: 3d61036e
FeatureExtractor/MobilenetV2/expanded_conv_4/expand/Relu6: 3d418306
FeatureExtractor/MobilenetV2/expanded_conv_4/depthwise/depthwise: 3da35e9a
FeatureExtractor/MobilenetV2/expanded_conv_4/depthwise/BatchNorm/batchnorm/mul_1: 3de324af
FeatureExtractor/MobilenetV2/expanded_conv_4/depthwise/BatchNorm/batchnorm/add_1: 3d899c42
FeatureExtractor/MobilenetV2/expanded_conv_4/depthwise/Relu6: 3d418306
FeatureExtractor/MobilenetV2/expanded_conv_4/project/Conv2D: 3da61236
FeatureExtractor/MobilenetV2/expanded_conv_4/project/BatchNorm/batchnorm/mul_1: 3dec7373
FeatureExtractor/MobilenetV2/expanded_conv_4/project/BatchNorm/batchnorm/add_1: 3dca63e1
FeatureExtractor/MobilenetV2/expanded_conv_4/add: 3e0e59a3
FeatureExtractor/MobilenetV2/expanded_conv_4/output: 3e0e59a3
FeatureExtractor/MobilenetV2/expanded_conv_5/expand/Conv2D: 3e1a705c
FeatureExtractor/MobilenetV2/expanded_conv_5/expand/BatchNorm/batchnorm/mul_1: 3d5a8bcb
FeatureExtractor/MobilenetV2/expanded_conv_5/expand/BatchNorm/batchnorm/add_1: 3d6bfe9e
FeatureExtractor/MobilenetV2/expanded_conv_5/expand/Relu6: 3d418306
FeatureExtractor/MobilenetV2/expanded_conv_5/depthwise/depthwise: 3d9ac5e6
FeatureExtractor/MobilenetV2/expanded_conv_5/depthwise/BatchNorm/batchnorm/mul_1: 3da0abbf
FeatureExtractor/MobilenetV2/expanded_conv_5/depthwise/BatchNorm/batchnorm/add_1: 3d368bcc
FeatureExtractor/MobilenetV2/expanded_conv_5/depthwise/Relu6: 3d418306
FeatureExtractor/MobilenetV2/expanded_conv_5/project/Conv2D: 3d91de06
FeatureExtractor/MobilenetV2/expanded_conv_5/project/BatchNorm/batchnorm/mul_1: 3e1b2aeb
FeatureExtractor/MobilenetV2/expanded_conv_5/project/BatchNorm/batchnorm/add_1: 3dfbfe6e
FeatureExtractor/MobilenetV2/expanded_conv_5/add: 3e38f3a1
FeatureExtractor/MobilenetV2/expanded_conv_5/output: 3e38f3a1
FeatureExtractor/MobilenetV2/expanded_conv_6/expand/Conv2D: 3e745d13
FeatureExtractor/MobilenetV2/expanded_conv_6/expand/BatchNorm/batchnorm/mul_1: 3d7c32ab
FeatureExtractor/MobilenetV2/expanded_conv_6/expand/BatchNorm/batchnorm/add_1: 3d897b82
FeatureExtractor/MobilenetV2/expanded_conv_6/expand/Relu6: 3d418306
FeatureExtractor/MobilenetV2/expanded_conv_6/depthwise/depthwise: 3db067a4
FeatureExtractor/MobilenetV2/expanded_conv_6/depthwise/BatchNorm/batchnorm/mul_1: 3d75d921
FeatureExtractor/MobilenetV2/expanded_conv_6/depthwise/BatchNorm/batchnorm/add_1: 3cfc3915
FeatureExtractor/MobilenetV2/expanded_conv_6/depthwise/Relu6: 3d418306
FeatureExtractor/MobilenetV2/expanded_conv_6/project/Conv2D: 3e03f082
FeatureExtractor/MobilenetV2/expanded_conv_6/project/BatchNorm/batchnorm/mul_1: 3dd95c76
FeatureExtractor/MobilenetV2/expanded_conv_6/project/BatchNorm/batchnorm/add_1: 3d81d251
FeatureExtractor/MobilenetV2/expanded_conv_6/output: 3d81d251
FeatureExtractor/MobilenetV2/expanded_conv_7/expand/Conv2D: 3d768854
FeatureExtractor/MobilenetV2/expanded_conv_7/expand/BatchNorm/batchnorm/mul_1: 3d1c8cca
FeatureExtractor/MobilenetV2/expanded_conv_7/expand/BatchNorm/batchnorm/add_1: 3d1bc308
FeatureExtractor/MobilenetV2/expanded_conv_7/expand/Relu6: 3d418306
FeatureExtractor/MobilenetV2/expanded_conv_7/depthwise/depthwise: 3d7066b8
FeatureExtractor/MobilenetV2/expanded_conv_7/depthwise/BatchNorm/batchnorm/mul_1: 3dad12f3
FeatureExtractor/MobilenetV2/expanded_conv_7/depthwise/BatchNorm/batchnorm/add_1: 3daec7db
FeatureExtractor/MobilenetV2/expanded_conv_7/depthwise/Relu6: 3d418306
FeatureExtractor/MobilenetV2/expanded_conv_7/project/Conv2D: 3d7bab27
FeatureExtractor/MobilenetV2/expanded_conv_7/project/BatchNorm/batchnorm/mul_1: 3da9337f
FeatureExtractor/MobilenetV2/expanded_conv_7/project/BatchNorm/batchnorm/add_1: 3d5ee11c
FeatureExtractor/MobilenetV2/expanded_conv_7/add: 3d940d53
FeatureExtractor/MobilenetV2/expanded_conv_7/output: 3d940d53
FeatureExtractor/MobilenetV2/expanded_conv_8/expand/Conv2D: 3db51edf
FeatureExtractor/MobilenetV2/expanded_conv_8/expand/BatchNorm/batchnorm/mul_1: 3d939513
FeatureExtractor/MobilenetV2/expanded_conv_8/expand/BatchNorm/batchnorm/add_1: 3d9e47ae
FeatureExtractor/MobilenetV2/expanded_conv_8/expand/Relu6: 3d418306
FeatureExtractor/MobilenetV2/expanded_conv_8/depthwise/depthwise: 3d5bed36
FeatureExtractor/MobilenetV2/expanded_conv_8/depthwise/BatchNorm/batchnorm/mul_1: 3d5fc257
FeatureExtractor/MobilenetV2/expanded_conv_8/depthwise/BatchNorm/batchnorm/add_1: 3d01d7f9
FeatureExtractor/MobilenetV2/expanded_conv_8/depthwise/Relu6: 3d418306
FeatureExtractor/MobilenetV2/expanded_conv_8/project/Conv2D: 3d46b50d
FeatureExtractor/MobilenetV2/expanded_conv_8/project/BatchNorm/batchnorm/mul_1: 3da1f76e
FeatureExtractor/MobilenetV2/expanded_conv_8/project/BatchNorm/batchnorm/add_1: 3d65e31b
FeatureExtractor/MobilenetV2/expanded_conv_8/add: 3db267e2
FeatureExtractor/MobilenetV2/expanded_conv_8/output: 3db267e2
FeatureExtractor/MobilenetV2/expanded_conv_9/expand/Conv2D: 3db06764
FeatureExtractor/MobilenetV2/expanded_conv_9/expand/BatchNorm/batchnorm/mul_1: 3d87d110
FeatureExtractor/MobilenetV2/expanded_conv_9/expand/BatchNorm/batchnorm/add_1: 3d841eb5
FeatureExtractor/MobilenetV2/expanded_conv_9/expand/Relu6: 3d418306
FeatureExtractor/MobilenetV2/expanded_conv_9/depthwise/depthwise: 3d07122d
FeatureExtractor/MobilenetV2/expanded_conv_9/depthwise/BatchNorm/batchnorm/mul_1: 3d6b6338
FeatureExtractor/MobilenetV2/expanded_conv_9/depthwise/BatchNorm/batchnorm/add_1: 3cb61ea7
FeatureExtractor/MobilenetV2/expanded_conv_9/depthwise/Relu6: 3d418306
FeatureExtractor/MobilenetV2/expanded_conv_9/project/Conv2D: 3d1db2ea
FeatureExtractor/MobilenetV2/expanded_conv_9/project/BatchNorm/batchnorm/mul_1: 3df96cc8
FeatureExtractor/MobilenetV2/expanded_conv_9/project/BatchNorm/batchnorm/add_1: 3db725b8
FeatureExtractor/MobilenetV2/expanded_conv_9/add: 3ddcb6a4
FeatureExtractor/MobilenetV2/expanded_conv_9/output: 3ddcb6a4
FeatureExtractor/MobilenetV2/expanded_conv_10/expand/Conv2D: 3e116116
FeatureExtractor/MobilenetV2/expanded_conv_10/expand/BatchNorm/batchnorm/mul_1: 3d341eec
FeatureExtractor/MobilenetV2/expanded_conv_10/expand/BatchNorm/batchnorm/add_1: 3d46e9f1
FeatureExtractor/MobilenetV2/expanded_conv_10/expand/Relu6: 3d418306
FeatureExtractor/MobilenetV2/expanded_conv_10/depthwise/depthwise: 3dbec102
FeatureExtractor/MobilenetV2/expanded_conv_10/depthwise/BatchNorm/batchnorm/mul_1: 3d567854
FeatureExtractor/MobilenetV2/expanded_conv_10/depthwise/BatchNorm/batchnorm/add_1: 3d079c50
FeatureExtractor/MobilenetV2/expanded_conv_10/depthwise/Relu6: 3d418306
FeatureExtractor/MobilenetV2/expanded_conv_10/project/Conv2D: 3db0cc1c
FeatureExtractor/MobilenetV2/expanded_conv_10/project/BatchNorm/batchnorm/mul_1: 3d95eb80
FeatureExtractor/MobilenetV2/expanded_conv_10/project/BatchNorm/batchnorm/add_1: 3d532410
FeatureExtractor/MobilenetV2/expanded_conv_10/output: 3d532410
FeatureExtractor/MobilenetV2/expanded_conv_11/expand/Conv2D: 3d8698c9
FeatureExtractor/MobilenetV2/expanded_conv_11/expand/BatchNorm/batchnorm/mul_1: 3d2ff17d
FeatureExtractor/MobilenetV2/expanded_conv_11/expand/BatchNorm/batchnorm/add_1: 3d286717
FeatureExtractor/MobilenetV2/expanded_conv_11/expand/Relu6: 3d418306
FeatureExtractor/MobilenetV2/expanded_conv_11/depthwise/depthwise: 3d06b05f
FeatureExtractor/MobilenetV2/expanded_conv_11/depthwise/BatchNorm/batchnorm/mul_1: 3d5ff4cc
FeatureExtractor/MobilenetV2/expanded_conv_11/depthwise/BatchNorm/batchnorm/add_1: 3ca2ece9
FeatureExtractor/MobilenetV2/expanded_conv_11/depthwise/Relu6: 3d418306
FeatureExtractor/MobilenetV2/expanded_conv_11/project/Conv2D: 3d28ebbb
FeatureExtractor/MobilenetV2/expanded_conv_11/project/BatchNorm/batchnorm/mul_1: 3d99c86d
FeatureExtractor/MobilenetV2/expanded_conv_11/project/BatchNorm/batchnorm/add_1: 3d80c08a
FeatureExtractor/MobilenetV2/expanded_conv_11/add: 3d9c9681
FeatureExtractor/MobilenetV2/expanded_conv_11/output: 3d9c9681
FeatureExtractor/MobilenetV2/expanded_conv_12/expand/Conv2D: 3d90c856
FeatureExtractor/MobilenetV2/expanded_conv_12/expand/BatchNorm/batchnorm/mul_1: 3d158456
FeatureExtractor/MobilenetV2/expanded_conv_12/expand/BatchNorm/batchnorm/add_1: 3d265033
FeatureExtractor/MobilenetV2/expanded_conv_12/expand/Relu6: 3d418306
FeatureExtractor/MobilenetV2/expanded_conv_12/depthwise/depthwise: 3d8ad29c
FeatureExtractor/MobilenetV2/expanded_conv_12/depthwise/BatchNorm/batchnorm/mul_1: 3d57a6e1
FeatureExtractor/MobilenetV2/expanded_conv_12/depthwise/BatchNorm/batchnorm/add_1: 3ce6c4bb
FeatureExtractor/MobilenetV2/expanded_conv_12/depthwise/Relu6: 3d418306
FeatureExtractor/MobilenetV2/expanded_conv_12/project/Conv2D: 3d2c6d46
FeatureExtractor/MobilenetV2/expanded_conv_12/project/BatchNorm/batchnorm/mul_1: 3de6592f
FeatureExtractor/MobilenetV2/expanded_conv_12/project/BatchNorm/batchnorm/add_1: 3d988c9b
FeatureExtractor/MobilenetV2/expanded_conv_12/add: 3ded3542
FeatureExtractor/MobilenetV2/expanded_conv_12/output: 3ded3542
FeatureExtractor/MobilenetV2/expanded_conv_13/expand/Conv2D: 3df6ff35
FeatureExtractor/MobilenetV2/expanded_conv_13/expand/BatchNorm/batchnorm/mul_1: 3d805781
FeatureExtractor/MobilenetV2/expanded_conv_13/expand/BatchNorm/batchnorm/add_1: 3d80ab0c
FeatureExtractor/MobilenetV2/expanded_conv_13/expand/Relu6: 3d418306
BoxPredictor_0/ClassPredictor/Conv2D: 3e17bbce
BoxPredictor_0/ClassPredictor/BiasAdd: 3e327204
(Unnamed Layer* 417) [Shuffle]_output: 3e327204
BoxPredictor_0/Reshape_1: 3e327204
FeatureExtractor/MobilenetV2/expanded_conv_13/depthwise/depthwise: 3d0c308b
FeatureExtractor/MobilenetV2/expanded_conv_13/depthwise/BatchNorm/batchnorm/mul_1: 3d38abf0
FeatureExtractor/MobilenetV2/expanded_conv_13/depthwise/BatchNorm/batchnorm/add_1: 3ca83f6f
FeatureExtractor/MobilenetV2/expanded_conv_13/depthwise/Relu6: 3d418306
FeatureExtractor/MobilenetV2/expanded_conv_13/project/Conv2D: 3d92e9ff
FeatureExtractor/MobilenetV2/expanded_conv_13/project/BatchNorm/batchnorm/mul_1: 3d51811b
FeatureExtractor/MobilenetV2/expanded_conv_13/project/BatchNorm/batchnorm/add_1: 3d1ea99b
FeatureExtractor/MobilenetV2/expanded_conv_13/output: 3d1ea99b
FeatureExtractor/MobilenetV2/expanded_conv_14/expand/Conv2D: 3d4e9fe0
FeatureExtractor/MobilenetV2/expanded_conv_14/expand/BatchNorm/batchnorm/mul_1: 3d522c6b
FeatureExtractor/MobilenetV2/expanded_conv_14/expand/BatchNorm/batchnorm/add_1: 3d73919d
FeatureExtractor/MobilenetV2/expanded_conv_14/expand/Relu6: 3d418306
FeatureExtractor/MobilenetV2/expanded_conv_14/depthwise/depthwise: 3d322e7a
FeatureExtractor/MobilenetV2/expanded_conv_14/depthwise/BatchNorm/batchnorm/mul_1: 3d5fc62a
FeatureExtractor/MobilenetV2/expanded_conv_14/depthwise/BatchNorm/batchnorm/add_1: 3d120e28
FeatureExtractor/MobilenetV2/expanded_conv_14/depthwise/Relu6: 3d418306
FeatureExtractor/MobilenetV2/expanded_conv_14/project/Conv2D: 3d3094e0
FeatureExtractor/MobilenetV2/expanded_conv_14/project/BatchNorm/batchnorm/mul_1: 3d64b236
FeatureExtractor/MobilenetV2/expanded_conv_14/project/BatchNorm/batchnorm/add_1: 3d526ccb
FeatureExtractor/MobilenetV2/expanded_conv_14/add: 3d77c56f
FeatureExtractor/MobilenetV2/expanded_conv_14/output: 3d77c56f
FeatureExtractor/MobilenetV2/expanded_conv_15/expand/Conv2D: 3dae9053
FeatureExtractor/MobilenetV2/expanded_conv_15/expand/BatchNorm/batchnorm/mul_1: 3d52afe1
FeatureExtractor/MobilenetV2/expanded_conv_15/expand/BatchNorm/batchnorm/add_1: 3d42f3d7
FeatureExtractor/MobilenetV2/expanded_conv_15/expand/Relu6: 3d418306
FeatureExtractor/MobilenetV2/expanded_conv_15/depthwise/depthwise: 3cf38502
FeatureExtractor/MobilenetV2/expanded_conv_15/depthwise/BatchNorm/batchnorm/mul_1: 3d4f9e58
FeatureExtractor/MobilenetV2/expanded_conv_15/depthwise/BatchNorm/batchnorm/add_1: 3d30de7c
FeatureExtractor/MobilenetV2/expanded_conv_15/depthwise/Relu6: 3d418306
FeatureExtractor/MobilenetV2/expanded_conv_15/project/Conv2D: 3d54ed5e
FeatureExtractor/MobilenetV2/expanded_conv_15/project/BatchNorm/batchnorm/mul_1: 3de350ee
FeatureExtractor/MobilenetV2/expanded_conv_15/project/BatchNorm/batchnorm/add_1: 3db6f8e3
FeatureExtractor/MobilenetV2/expanded_conv_15/add: 3e0ad457
FeatureExtractor/MobilenetV2/expanded_conv_15/output: 3e0ad457
FeatureExtractor/MobilenetV2/expanded_conv_16/expand/Conv2D: 3e51beac
FeatureExtractor/MobilenetV2/expanded_conv_16/expand/BatchNorm/batchnorm/mul_1: 3d48c13e
FeatureExtractor/MobilenetV2/expanded_conv_16/expand/BatchNorm/batchnorm/add_1: 3d60c698
FeatureExtractor/MobilenetV2/expanded_conv_16/expand/Relu6: 3d418306
FeatureExtractor/MobilenetV2/expanded_conv_16/depthwise/depthwise: 3d14fc25
FeatureExtractor/MobilenetV2/expanded_conv_16/depthwise/BatchNorm/batchnorm/mul_1: 3da462e8
FeatureExtractor/MobilenetV2/expanded_conv_16/depthwise/BatchNorm/batchnorm/add_1: 3d3eaae0
FeatureExtractor/MobilenetV2/expanded_conv_16/depthwise/Relu6: 3d418306
FeatureExtractor/MobilenetV2/expanded_conv_16/project/Conv2D: 3d9ae4fc
FeatureExtractor/MobilenetV2/expanded_conv_16/project/BatchNorm/batchnorm/mul_1: 3d961a36
FeatureExtractor/MobilenetV2/expanded_conv_16/project/BatchNorm/batchnorm/add_1: 3d94a926
FeatureExtractor/MobilenetV2/expanded_conv_16/project/Identity: 3d94a926
FeatureExtractor/MobilenetV2/Conv_1/Conv2D: 3d8ac7a0
FeatureExtractor/MobilenetV2/Conv_1/BatchNorm/batchnorm/mul_1: 3d99d414
FeatureExtractor/MobilenetV2/Conv_1/BatchNorm/batchnorm/add_1: 3d943dcb
FeatureExtractor/MobilenetV2/Conv_1/Relu6: 3d418306
BoxPredictor_1/ClassPredictor/Conv2D: 3e285387
BoxPredictor_1/ClassPredictor/BiasAdd: 3e36b1e6
(Unnamed Layer* 550) [Shuffle]_output: 3e36b1e6
BoxPredictor_1/Reshape_1: 3e36b1e6
FeatureExtractor/MobilenetV2/layer_19_1_Conv2d_2_1x1_256/Conv2D: 3d8fd5dd
FeatureExtractor/MobilenetV2/layer_19_1_Conv2d_2_1x1_256/BatchNorm/batchnorm/mul_1: 3d99868e
FeatureExtractor/MobilenetV2/layer_19_1_Conv2d_2_1x1_256/BatchNorm/batchnorm/add_1: 3d9c12ee
FeatureExtractor/MobilenetV2/layer_19_1_Conv2d_2_1x1_256/Relu6: 3d418306
FeatureExtractor/MobilenetV2/layer_19_2_Conv2d_2_3x3_s2_512_depthwise/depthwise: 3c669ab4
FeatureExtractor/MobilenetV2/layer_19_2_Conv2d_2_3x3_s2_512_depthwise/BatchNorm/batchnorm/mul_1: 3e068328
FeatureExtractor/MobilenetV2/layer_19_2_Conv2d_2_3x3_s2_512_depthwise/BatchNorm/batchnorm/add_1: 3d36512f
FeatureExtractor/MobilenetV2/layer_19_2_Conv2d_2_3x3_s2_512_depthwise/Relu6: 3d418306
FeatureExtractor/MobilenetV2/layer_19_2_Conv2d_2_3x3_s2_512/Conv2D: 3d08705a
FeatureExtractor/MobilenetV2/layer_19_2_Conv2d_2_3x3_s2_512/BatchNorm/batchnorm/mul_1: 3e0f04cd
FeatureExtractor/MobilenetV2/layer_19_2_Conv2d_2_3x3_s2_512/BatchNorm/batchnorm/add_1: 3d6f8ed6
FeatureExtractor/MobilenetV2/layer_19_2_Conv2d_2_3x3_s2_512/Relu6: 3d418306
BoxPredictor_2/ClassPredictor/Conv2D: 3df6fb58
BoxPredictor_2/ClassPredictor/BiasAdd: 3e0234a0
(Unnamed Layer* 591) [Shuffle]_output: 3e0234a0
BoxPredictor_2/Reshape_1: 3e0234a0
FeatureExtractor/MobilenetV2/layer_19_1_Conv2d_3_1x1_128/Conv2D: 3d906df5
FeatureExtractor/MobilenetV2/layer_19_1_Conv2d_3_1x1_128/BatchNorm/batchnorm/mul_1: 3d332f22
FeatureExtractor/MobilenetV2/layer_19_1_Conv2d_3_1x1_128/BatchNorm/batchnorm/add_1: 3d3d2db8
FeatureExtractor/MobilenetV2/layer_19_1_Conv2d_3_1x1_128/Relu6: 3d418306
FeatureExtractor/MobilenetV2/layer_19_2_Conv2d_3_3x3_s2_256_depthwise/depthwise: 3c6ae250
FeatureExtractor/MobilenetV2/layer_19_2_Conv2d_3_3x3_s2_256_depthwise/BatchNorm/batchnorm/mul_1: 3d86e9d3
FeatureExtractor/MobilenetV2/layer_19_2_Conv2d_3_3x3_s2_256_depthwise/BatchNorm/batchnorm/add_1: 3d829c75
FeatureExtractor/MobilenetV2/layer_19_2_Conv2d_3_3x3_s2_256_depthwise/Relu6: 3d418306
FeatureExtractor/MobilenetV2/layer_19_2_Conv2d_3_3x3_s2_256/Conv2D: 3cb977ae
FeatureExtractor/MobilenetV2/layer_19_2_Conv2d_3_3x3_s2_256/BatchNorm/batchnorm/mul_1: 3df50b5b
FeatureExtractor/MobilenetV2/layer_19_2_Conv2d_3_3x3_s2_256/BatchNorm/batchnorm/add_1: 3d941632
FeatureExtractor/MobilenetV2/layer_19_2_Conv2d_3_3x3_s2_256/Relu6: 3d418306
BoxPredictor_3/ClassPredictor/Conv2D: 3de577fc
BoxPredictor_3/ClassPredictor/BiasAdd: 3df25353
(Unnamed Layer* 632) [Shuffle]_output: 3df25353
BoxPredictor_3/Reshape_1: 3df25353
FeatureExtractor/MobilenetV2/layer_19_1_Conv2d_4_1x1_128/Conv2D: 3d26456b
FeatureExtractor/MobilenetV2/layer_19_1_Conv2d_4_1x1_128/BatchNorm/batchnorm/mul_1: 3d31d3fa
FeatureExtractor/MobilenetV2/layer_19_1_Conv2d_4_1x1_128/BatchNorm/batchnorm/add_1: 3d30c3c7
FeatureExtractor/MobilenetV2/layer_19_1_Conv2d_4_1x1_128/Relu6: 3d418306
FeatureExtractor/MobilenetV2/layer_19_2_Conv2d_4_3x3_s2_256_depthwise/depthwise: 3bc8f1c6
FeatureExtractor/MobilenetV2/layer_19_2_Conv2d_4_3x3_s2_256_depthwise/BatchNorm/batchnorm/mul_1: 3d2a762d
FeatureExtractor/MobilenetV2/layer_19_2_Conv2d_4_3x3_s2_256_depthwise/BatchNorm/batchnorm/add_1: 3ce45c31
FeatureExtractor/MobilenetV2/layer_19_2_Conv2d_4_3x3_s2_256_depthwise/Relu6: 3d418306
FeatureExtractor/MobilenetV2/layer_19_2_Conv2d_4_3x3_s2_256/Conv2D: 3c39e739
FeatureExtractor/MobilenetV2/layer_19_2_Conv2d_4_3x3_s2_256/BatchNorm/batchnorm/mul_1: 3dd20a47
FeatureExtractor/MobilenetV2/layer_19_2_Conv2d_4_3x3_s2_256/BatchNorm/batchnorm/add_1: 3d816a55
FeatureExtractor/MobilenetV2/layer_19_2_Conv2d_4_3x3_s2_256/Relu6: 3d418306
BoxPredictor_4/ClassPredictor/Conv2D: 3dd542bc
BoxPredictor_4/ClassPredictor/BiasAdd: 3ddfb700
(Unnamed Layer* 673) [Shuffle]_output: 3ddfb700
BoxPredictor_4/Reshape_1: 3ddfb700
FeatureExtractor/MobilenetV2/layer_19_1_Conv2d_5_1x1_64/Conv2D: 3d2ec169
FeatureExtractor/MobilenetV2/layer_19_1_Conv2d_5_1x1_64/BatchNorm/batchnorm/mul_1: 3ca8b6d6
FeatureExtractor/MobilenetV2/layer_19_1_Conv2d_5_1x1_64/BatchNorm/batchnorm/add_1: 3ca87376
FeatureExtractor/MobilenetV2/layer_19_1_Conv2d_5_1x1_64/Relu6: 3d418306
FeatureExtractor/MobilenetV2/layer_19_2_Conv2d_5_3x3_s2_128_depthwise/depthwise: 3b6f1600
FeatureExtractor/MobilenetV2/layer_19_2_Conv2d_5_3x3_s2_128_depthwise/BatchNorm/batchnorm/mul_1: 3d171587
FeatureExtractor/MobilenetV2/layer_19_2_Conv2d_5_3x3_s2_128_depthwise/BatchNorm/batchnorm/add_1: 3cda7abf
FeatureExtractor/MobilenetV2/layer_19_2_Conv2d_5_3x3_s2_128_depthwise/Relu6: 3d418306
FeatureExtractor/MobilenetV2/layer_19_2_Conv2d_5_3x3_s2_128/Conv2D: 3c92d246
FeatureExtractor/MobilenetV2/layer_19_2_Conv2d_5_3x3_s2_128/BatchNorm/batchnorm/mul_1: 3e042f39
FeatureExtractor/MobilenetV2/layer_19_2_Conv2d_5_3x3_s2_128/BatchNorm/batchnorm/add_1: 3dbc8849
FeatureExtractor/MobilenetV2/layer_19_2_Conv2d_5_3x3_s2_128/Relu6: 3d418306
BoxPredictor_5/ClassPredictor/Conv2D: 3df6d938
BoxPredictor_5/ClassPredictor/BiasAdd: 3e0085df
(Unnamed Layer* 714) [Shuffle]_output: 3e0085df
BoxPredictor_5/Reshape_1: 3e0085df
concat_box_conf: 3e327204
BoxPredictor_0/BoxEncodingPredictor/Conv2D: 3dd1f748
BoxPredictor_0/BoxEncodingPredictor/BiasAdd: 3df7da31
(Unnamed Layer* 724) [Shuffle]_output: 3df7da31
BoxPredictor_0/Reshape: 3df7da31
BoxPredictor_1/BoxEncodingPredictor/Conv2D: 3d3c13b3
BoxPredictor_1/BoxEncodingPredictor/BiasAdd: 3d1fa5c3
(Unnamed Layer* 733) [Shuffle]_output: 3d1fa5c3
BoxPredictor_1/Reshape: 3d1fa5c3
BoxPredictor_2/BoxEncodingPredictor/Conv2D: 3cd1138c
BoxPredictor_2/BoxEncodingPredictor/BiasAdd: 3cc06f6e
(Unnamed Layer* 742) [Shuffle]_output: 3cc06f6e
BoxPredictor_2/Reshape: 3cc06f6e
BoxPredictor_3/BoxEncodingPredictor/Conv2D: 3ccf724d
BoxPredictor_3/BoxEncodingPredictor/BiasAdd: 3cda126c
(Unnamed Layer* 751) [Shuffle]_output: 3cda126c
BoxPredictor_3/Reshape: 3cda126c
BoxPredictor_4/BoxEncodingPredictor/Conv2D: 3c97e24a
BoxPredictor_4/BoxEncodingPredictor/BiasAdd: 3c9bf1cc
(Unnamed Layer* 760) [Shuffle]_output: 3c9bf1cc
BoxPredictor_4/Reshape: 3c9bf1cc
BoxPredictor_5/BoxEncodingPredictor/Conv2D: 3ccd4c85
BoxPredictor_5/BoxEncodingPredictor/BiasAdd: 3cdd35c2
(Unnamed Layer* 769) [Shuffle]_output: 3cdd35c2
BoxPredictor_5/Reshape: 3cdd35c2
Squeeze: 3df7da31
Const: 3c010a14
GridAnchor: 3e3bef23
GridAnchor_1: 3e3bef23
GridAnchor_2: 3e3bef23
GridAnchor_3: 3e3bef23
GridAnchor_4: 3e3bef23
GridAnchor_5: 3e3bef23
concat_priorbox: 3e3bef23
NMS: 3ef614a9
NMS_1: 1
