TRT-6001-EntropyCalibration2
data: 3c010a14
conv1: 3c89d911
pool1: 3c89d911
conv2: 3dd9a918
pool2: 3dd9a918
(Unnamed Layer* 4) [Fully Connected]_output: 3dd0475e
ip1: 3dc2ae30
ip2: 3e89521d
prob: 3c010a14
